const unsigned char trained_tflite[] = {
  0x1c, 0x00, 0x00, 0x00, 0x54, 0x46, 0x4c, 0x33, 0x00, 0x00, 0x12, 0x00,
  0x1c, 0x00, 0x18, 0x00, 0x14, 0x00, 0x10, 0x00, 0x0c, 0x00, 0x08, 0x00,
  0x00, 0x00, 0x04, 0x00, 0x12, 0x00, 0x00, 0x00, 0x18, 0x00, 0x00, 0x00,
  0x48, 0x00, 0x00, 0x00, 0xb8, 0x05, 0x00, 0x00, 0xc8, 0x05, 0x00, 0x00,
  0xc0, 0x0e, 0x00, 0x00, 0x03, 0x00, 0x00, 0x00, 0x01, 0x00, 0x00, 0x00,
  0x0c, 0x00, 0x00, 0x00, 0x08, 0x00, 0x0c, 0x00, 0x08, 0x00, 0x04, 0x00,
  0x08, 0x00, 0x00, 0x00, 0x0c, 0x00, 0x00, 0x00, 0x04, 0x00, 0x00, 0x00,
  0x13, 0x00, 0x00, 0x00, 0x6d, 0x69, 0x6e, 0x5f, 0x72, 0x75, 0x6e, 0x74,
  0x69, 0x6d, 0x65, 0x5f, 0x76, 0x65, 0x72, 0x73, 0x69, 0x6f, 0x6e, 0x00,
  0x0d, 0x00, 0x00, 0x00, 0x6c, 0x05, 0x00, 0x00, 0x64, 0x05, 0x00, 0x00,
  0x04, 0x05, 0x00, 0x00, 0xcc, 0x04, 0x00, 0x00, 0xac, 0x04, 0x00, 0x00,
  0x54, 0x01, 0x00, 0x00, 0x7c, 0x00, 0x00, 0x00, 0x44, 0x00, 0x00, 0x00,
  0x3c, 0x00, 0x00, 0x00, 0x34, 0x00, 0x00, 0x00, 0x2c, 0x00, 0x00, 0x00,
  0x24, 0x00, 0x00, 0x00, 0x04, 0x00, 0x00, 0x00, 0x36, 0xfa, 0xff, 0xff,
  0x04, 0x00, 0x00, 0x00, 0x10, 0x00, 0x00, 0x00, 0x31, 0x2e, 0x35, 0x2e,
  0x30, 0x00, 0x00, 0x00, 0x00, 0x00, 0x00, 0x00, 0x00, 0x00, 0x00, 0x00,
  0x20, 0xfa, 0xff, 0xff, 0x24, 0xfa, 0xff, 0xff, 0x28, 0xfa, 0xff, 0xff,
  0x2c, 0xfa, 0xff, 0xff, 0x62, 0xfa, 0xff, 0xff, 0x04, 0x00, 0x00, 0x00,
  0x28, 0x00, 0x00, 0x00, 0x9a, 0xf8, 0xfa, 0x25, 0xdc, 0xe7, 0xa0, 0x4c,
  0x32, 0x1d, 0x7b, 0xf7, 0x3e, 0x27, 0x0b, 0xed, 0x35, 0xad, 0x37, 0x29,
  0x98, 0xb0, 0xba, 0x3a, 0x56, 0x56, 0x2e, 0xd8, 0xd9, 0xb0, 0xb2, 0x4a,
  0x3a, 0x00, 0x02, 0xdb, 0xf8, 0xaf, 0x99, 0x7f, 0x96, 0xfa, 0xff, 0xff,
  0x04, 0x00, 0x00, 0x00, 0xc8, 0x00, 0x00, 0x00, 0xbe, 0x01, 0xfb, 0x0c,
  0x7a, 0xc3, 0xec, 0x22, 0xc8, 0xbf, 0xeb, 0xf4, 0x3e, 0x58, 0xde, 0xea,
  0xe0, 0x09, 0xef, 0x02, 0xd4, 0x0a, 0xde, 0x1a, 0x10, 0x06, 0x2e, 0xe3,
  0xe8, 0xd0, 0x0b, 0xcc, 0xf0, 0xec, 0xcd, 0xc6, 0xe5, 0x2c, 0x20, 0xc7,
  0xca, 0x26, 0x03, 0xdd, 0x2f, 0xf6, 0x1b, 0xdb, 0x32, 0x2d, 0xd9, 0xe4,
  0x11, 0xda, 0x0e, 0xea, 0xe9, 0x3d, 0xc1, 0xea, 0xd5, 0xee, 0xd1, 0xcb,
  0xf4, 0x19, 0x2d, 0x2d, 0x38, 0xca, 0x33, 0x15, 0x03, 0xd0, 0xeb, 0x41,
  0x09, 0x0f, 0x0f, 0xc2, 0x36, 0xfc, 0xd2, 0xcf, 0xb9, 0x3d, 0xf8, 0xf5,
  0xd6, 0x44, 0x06, 0xc6, 0xe1, 0x12, 0xef, 0x60, 0x06, 0xc1, 0x41, 0x0d,
  0x52, 0x2d, 0xc1, 0x06, 0xd5, 0x18, 0x14, 0xe8, 0x3f, 0xd5, 0xbe, 0x19,
  0xbd, 0x20, 0xe0, 0x7f, 0xc8, 0xf7, 0xde, 0x12, 0x36, 0xe6, 0xfc, 0x34,
  0x31, 0xe8, 0x03, 0x19, 0x19, 0x32, 0xe0, 0x14, 0xac, 0x08, 0xf4, 0x09,
  0x14, 0xef, 0x13, 0xd4, 0xdb, 0x33, 0xaa, 0xc0, 0x95, 0xf9, 0xf0, 0xc4,
  0x38, 0x3a, 0x2a, 0x7c, 0x1e, 0xb7, 0xe5, 0xa8, 0xda, 0x08, 0xe2, 0x25,
  0xd9, 0x22, 0xf0, 0x20, 0x3d, 0xf2, 0x20, 0xc1, 0xf2, 0xdf, 0x1c, 0x3f,
  0x2f, 0x42, 0xe9, 0xe5, 0xd2, 0x36, 0xfb, 0xfc, 0xdb, 0x30, 0x40, 0x32,
  0xca, 0x2a, 0x2b, 0xed, 0x37, 0xe0, 0xf3, 0x0e, 0xc3, 0xe6, 0xe2, 0xfb,
  0x42, 0x42, 0xe6, 0x53, 0x6a, 0xfb, 0xff, 0xff, 0x04, 0x00, 0x00, 0x00,
  0x48, 0x03, 0x00, 0x00, 0x95, 0x97, 0xa3, 0xce, 0x19, 0x02, 0xde, 0xd0,
  0xcb, 0x17, 0x3f, 0xf0, 0xf3, 0x35, 0x41, 0x67, 0x64, 0x0d, 0x56, 0xc8,
  0x21, 0xe2, 0x3a, 0xf4, 0xf4, 0xf6, 0xca, 0x21, 0x12, 0xc6, 0x10, 0xe5,
  0x3f, 0x4e, 0xfa, 0xca, 0xdf, 0x1d, 0x0e, 0xed, 0x1a, 0x3f, 0xf8, 0xfd,
  0xef, 0xd3, 0xff, 0x2f, 0x28, 0x4d, 0xda, 0x20, 0x11, 0xcb, 0xf8, 0xc4,
  0xc8, 0xef, 0xd5, 0xb3, 0x1f, 0x16, 0x04, 0xf8, 0xe7, 0xe5, 0xfa, 0xc3,
  0x22, 0x38, 0xd2, 0x14, 0x25, 0x2b, 0xa9, 0x06, 0xca, 0x4b, 0xfa, 0x19,
  0x1f, 0xce, 0xd4, 0x1e, 0x20, 0xdb, 0xea, 0x3f, 0x24, 0x21, 0xba, 0xf8,
  0xc8, 0x1b, 0xec, 0x00, 0xa0, 0xd4, 0xf2, 0x81, 0xb2, 0xc2, 0x52, 0xe8,
  0x20, 0xfc, 0xe1, 0x18, 0xef, 0x3c, 0xeb, 0xd0, 0xfd, 0xd2, 0xe2, 0x3a,
  0xcc, 0x4c, 0xbd, 0x07, 0xef, 0x0c, 0xf9, 0xf2, 0x17, 0xd8, 0xb8, 0xea,
  0xc5, 0x1a, 0x10, 0x14, 0xd2, 0x0e, 0x0e, 0x40, 0xfd, 0xc0, 0x0d, 0x20,
  0x03, 0xda, 0xea, 0xee, 0x3f, 0x2c, 0xbc, 0xd0, 0x4a, 0xf7, 0xf3, 0x3e,
  0x08, 0xec, 0x33, 0x0c, 0xfd, 0x31, 0x02, 0xc6, 0xf3, 0x32, 0x10, 0xef,
  0xc8, 0x00, 0x07, 0xf6, 0x2f, 0x5b, 0xfc, 0x5a, 0xd8, 0x38, 0xf9, 0x15,
  0x2d, 0x42, 0xf3, 0xfc, 0xf8, 0xfd, 0xaa, 0xe3, 0xb7, 0xc2, 0xf2, 0xec,
  0x1d, 0xf2, 0xf0, 0x16, 0xf8, 0xda, 0x34, 0x05, 0x2b, 0x0d, 0xf1, 0xcf,
  0xc8, 0x2b, 0xec, 0xd8, 0x14, 0x19, 0xdc, 0xe2, 0xef, 0xea, 0x21, 0xca,
  0xfc, 0xf1, 0x28, 0x20, 0x07, 0x23, 0x03, 0xd4, 0xd3, 0xe0, 0x2f, 0xed,
  0x26, 0xfe, 0xcf, 0x0b, 0x46, 0x61, 0xe2, 0xe8, 0x11, 0x02, 0xbc, 0x11,
  0x06, 0xed, 0x26, 0x14, 0x2e, 0x41, 0x0b, 0x54, 0xf0, 0x1b, 0xe9, 0x1f,
  0x4f, 0xea, 0xf4, 0x16, 0xc4, 0x38, 0xef, 0xde, 0xd9, 0x12, 0x1b, 0xfc,
  0xeb, 0x32, 0xb9, 0xc1, 0xbd, 0xd6, 0x31, 0x04, 0xe5, 0x15, 0x08, 0xec,
  0x10, 0xeb, 0x40, 0xc0, 0x07, 0xf8, 0xde, 0x13, 0x1c, 0xf8, 0x1b, 0xdf,
  0xc8, 0xf5, 0xf1, 0xec, 0x1a, 0x28, 0xfb, 0xda, 0x35, 0x0e, 0xe4, 0x43,
  0xca, 0xeb, 0xbc, 0x41, 0x0c, 0xcc, 0x44, 0xc0, 0x20, 0xce, 0xc6, 0xe5,
  0xdc, 0x0f, 0xf6, 0xc4, 0xf8, 0xe0, 0xe8, 0xd8, 0xcc, 0xf6, 0xe5, 0xb3,
  0x29, 0x16, 0x09, 0x36, 0xb5, 0x2d, 0xb7, 0xd3, 0x15, 0x24, 0xc8, 0x09,
  0x12, 0x0c, 0x16, 0xc3, 0x0f, 0x16, 0x13, 0xb6, 0x25, 0x1a, 0xe6, 0xf9,
  0x24, 0xc4, 0xb3, 0x3c, 0x04, 0xe8, 0xb5, 0xdb, 0x06, 0xee, 0x2c, 0xfa,
  0xf9, 0xf3, 0xfa, 0xe0, 0xdb, 0x38, 0xc1, 0x16, 0x31, 0x04, 0xe0, 0x13,
  0xdb, 0x1e, 0x36, 0x1c, 0xfc, 0x02, 0xbd, 0x0a, 0x21, 0xcc, 0xef, 0x00,
  0xf8, 0x14, 0xb3, 0xf5, 0xed, 0xe4, 0x30, 0xe0, 0xf9, 0xd9, 0xf9, 0x07,
  0x24, 0x03, 0x27, 0x5b, 0x2b, 0xb6, 0x25, 0xc5, 0x07, 0x2b, 0x23, 0xbc,
  0xe8, 0xe4, 0x45, 0x33, 0xbc, 0x08, 0xf1, 0xd2, 0xff, 0x2f, 0x09, 0x23,
  0xeb, 0x22, 0xd7, 0xee, 0xca, 0xc8, 0xbf, 0xc8, 0x41, 0xe7, 0x19, 0x02,
  0x0e, 0x34, 0x01, 0x39, 0x0b, 0x37, 0xf4, 0xc8, 0xd0, 0x27, 0xe8, 0xf6,
  0xd6, 0xff, 0x2f, 0xbd, 0xde, 0x14, 0xcf, 0x24, 0x1b, 0xc7, 0x43, 0xf2,
  0xbd, 0xfc, 0x43, 0x1c, 0xeb, 0x09, 0xd0, 0xf7, 0xe6, 0x02, 0x4c, 0x3c,
  0x03, 0x03, 0xec, 0x30, 0xf8, 0x01, 0x1a, 0x10, 0x14, 0x3a, 0x1f, 0xe5,
  0xf3, 0x3d, 0x25, 0x45, 0x2f, 0x27, 0x25, 0xdd, 0xfd, 0x0e, 0x18, 0xca,
  0x1f, 0x43, 0xd0, 0x2c, 0xbc, 0x14, 0xd1, 0xe5, 0x3c, 0xd2, 0x38, 0x24,
  0x36, 0xe4, 0xe3, 0xee, 0x27, 0x40, 0x13, 0xe3, 0x1a, 0xf5, 0x13, 0xde,
  0xf4, 0x3f, 0xfe, 0xdd, 0xd5, 0x39, 0x3d, 0xbb, 0x22, 0xfa, 0xad, 0xce,
  0xe4, 0xf1, 0x35, 0xfc, 0xc7, 0x01, 0xda, 0x18, 0x3c, 0xe7, 0x20, 0xdf,
  0xde, 0x29, 0xdc, 0xe1, 0xe2, 0xf6, 0xc4, 0x3a, 0x03, 0x1c, 0x16, 0x22,
  0xf7, 0x3e, 0xc9, 0xd0, 0x38, 0x17, 0x33, 0x61, 0x25, 0x47, 0x1f, 0xe8,
  0xe8, 0xf4, 0xbb, 0xc0, 0x09, 0x29, 0xc8, 0xf2, 0x0e, 0xf4, 0xe2, 0x4e,
  0x31, 0x06, 0x41, 0xf3, 0xc1, 0x3f, 0x0e, 0x27, 0x31, 0x16, 0x20, 0xe6,
  0x4a, 0xde, 0xd5, 0x1b, 0xbd, 0x9f, 0x32, 0xc6, 0x16, 0xf6, 0x1c, 0x37,
  0x16, 0xe3, 0xb6, 0xe7, 0xda, 0xf6, 0x0b, 0xf7, 0xda, 0xe3, 0xd8, 0xc8,
  0x10, 0x12, 0xe9, 0x0a, 0x16, 0xee, 0xd6, 0x08, 0xf0, 0x0a, 0x03, 0xf2,
  0x29, 0x21, 0x45, 0xb8, 0x1f, 0xfb, 0xbe, 0xdb, 0x12, 0xd8, 0xa9, 0x18,
  0xc0, 0xe9, 0xfa, 0x27, 0x0d, 0xcf, 0xe9, 0x2b, 0xe4, 0x29, 0xfa, 0xf4,
  0x66, 0xea, 0x1b, 0x50, 0x4e, 0x28, 0xfc, 0xfc, 0x06, 0xe8, 0xff, 0x09,
  0x2c, 0x2b, 0x11, 0x03, 0xf2, 0xd0, 0xe3, 0x31, 0x07, 0xed, 0xfa, 0xfa,
  0xea, 0x18, 0xee, 0xee, 0xba, 0x2a, 0x1c, 0xfc, 0x05, 0xfd, 0xf5, 0xee,
  0x06, 0x24, 0xf3, 0xbc, 0xd3, 0xc3, 0xc2, 0x11, 0x21, 0x12, 0xc1, 0x0b,
  0xdb, 0xc1, 0xf2, 0x27, 0x1b, 0x08, 0xeb, 0x15, 0x46, 0x47, 0xfd, 0xe7,
  0xf1, 0x25, 0x1b, 0x20, 0x01, 0xe7, 0xc1, 0x17, 0x17, 0x4a, 0xd8, 0xfc,
  0xb3, 0xba, 0x35, 0xdc, 0x0a, 0x3b, 0xe2, 0x08, 0xfd, 0x13, 0x0e, 0xf0,
  0xf0, 0xe9, 0xfd, 0xef, 0xd2, 0x3a, 0xc2, 0xf8, 0x33, 0xd7, 0x32, 0xf0,
  0xd1, 0x47, 0x21, 0x29, 0x21, 0x04, 0x04, 0x11, 0xc6, 0xc3, 0x48, 0x05,
  0xbc, 0x04, 0xcb, 0x34, 0xbf, 0xe1, 0x27, 0x2c, 0x17, 0x21, 0xf8, 0xdf,
  0xff, 0xf8, 0xb4, 0xc1, 0x45, 0x08, 0xe0, 0x31, 0xdf, 0xf2, 0xb5, 0xd1,
  0x29, 0xc7, 0xf9, 0x39, 0xc6, 0xb7, 0x33, 0xf2, 0x24, 0x05, 0x20, 0x0e,
  0x2e, 0xff, 0x31, 0x2b, 0x30, 0xe8, 0xfe, 0x19, 0xfe, 0xd1, 0xf5, 0x25,
  0x3e, 0x2c, 0x32, 0xf8, 0xe9, 0xb9, 0x2a, 0x3b, 0xf8, 0x4c, 0xe0, 0xf7,
  0x2d, 0x09, 0x05, 0xb1, 0x32, 0x18, 0xf9, 0x19, 0x27, 0xc4, 0x24, 0x47,
  0xfe, 0x4e, 0xd6, 0xb6, 0xd2, 0xd3, 0x54, 0x32, 0x1c, 0x00, 0x0b, 0xf9,
  0x45, 0x17, 0xc3, 0xe0, 0xbe, 0xfe, 0xff, 0xff, 0x04, 0x00, 0x00, 0x00,
  0x10, 0x00, 0x00, 0x00, 0x65, 0x00, 0x00, 0x00, 0x92, 0xff, 0xff, 0xff,
  0x52, 0x00, 0x00, 0x00, 0x6b, 0x00, 0x00, 0x00, 0xda, 0xfe, 0xff, 0xff,
  0x04, 0x00, 0x00, 0x00, 0x28, 0x00, 0x00, 0x00, 0x10, 0x00, 0x00, 0x00,
  0x00, 0x00, 0x00, 0x00, 0xef, 0xff, 0xff, 0xff, 0xed, 0xff, 0xff, 0xff,
  0x3d, 0x00, 0x00, 0x00, 0x18, 0x00, 0x00, 0x00, 0xdf, 0xff, 0xff, 0xff,
  0x70, 0x00, 0x00, 0x00, 0xf6, 0xff, 0xff, 0xff, 0xf7, 0xff, 0xff, 0xff,
  0x0e, 0xff, 0xff, 0xff, 0x04, 0x00, 0x00, 0x00, 0x50, 0x00, 0x00, 0x00,
  0x06, 0x00, 0x00, 0x00, 0xf6, 0xff, 0xff, 0xff, 0x07, 0x00, 0x00, 0x00,
  0xfe, 0xff, 0xff, 0xff, 0x15, 0x00, 0x00, 0x00, 0xfa, 0xff, 0xff, 0xff,
  0xf9, 0xff, 0xff, 0xff, 0xfd, 0xff, 0xff, 0xff, 0xfc, 0xff, 0xff, 0xff,
  0xfa, 0xff, 0xff, 0xff, 0xfe, 0xff, 0xff, 0xff, 0x01, 0x00, 0x00, 0x00,
  0x00, 0x00, 0x00, 0x00, 0x04, 0x00, 0x00, 0x00, 0xf6, 0xff, 0xff, 0xff,
  0x03, 0x00, 0x00, 0x00, 0xf7, 0xff, 0xff, 0xff, 0xfc, 0xff, 0xff, 0xff,
  0xf8, 0xff, 0xff, 0xff, 0xfa, 0xff, 0xff, 0xff, 0x38, 0xff, 0xff, 0xff,
  0x3c, 0xff, 0xff, 0xff, 0x0f, 0x00, 0x00, 0x00, 0x4d, 0x4c, 0x49, 0x52,
  0x20, 0x43, 0x6f, 0x6e, 0x76, 0x65, 0x72, 0x74, 0x65, 0x64, 0x2e, 0x00,
  0x01, 0x00, 0x00, 0x00, 0x14, 0x00, 0x00, 0x00, 0x00, 0x00, 0x0e, 0x00,
  0x18, 0x00, 0x14, 0x00, 0x10, 0x00, 0x0c, 0x00, 0x08, 0x00, 0x04, 0x00,
  0x0e, 0x00, 0x00, 0x00, 0x14, 0x00, 0x00, 0x00, 0x1c, 0x00, 0x00, 0x00,
  0x28, 0x01, 0x00, 0x00, 0x2c, 0x01, 0x00, 0x00, 0x30, 0x01, 0x00, 0x00,
  0x04, 0x00, 0x00, 0x00, 0x6d, 0x61, 0x69, 0x6e, 0x00, 0x00, 0x00, 0x00,
  0x04, 0x00, 0x00, 0x00, 0xd0, 0x00, 0x00, 0x00, 0x88, 0x00, 0x00, 0x00,
  0x50, 0x00, 0x00, 0x00, 0x14, 0x00, 0x00, 0x00, 0x00, 0x00, 0x0e, 0x00,
  0x1a, 0x00, 0x14, 0x00, 0x10, 0x00, 0x0c, 0x00, 0x0b, 0x00, 0x04, 0x00,
  0x0e, 0x00, 0x00, 0x00, 0x1c, 0x00, 0x00, 0x00, 0x00, 0x00, 0x00, 0x09,
  0x1c, 0x00, 0x00, 0x00, 0x20, 0x00, 0x00, 0x00, 0x01, 0x00, 0x00, 0x00,
  0x00, 0x00, 0x06, 0x00, 0x08, 0x00, 0x04, 0x00, 0x06, 0x00, 0x00, 0x00,
  0x00, 0x00, 0x80, 0x3f, 0x01, 0x00, 0x00, 0x00, 0x0a, 0x00, 0x00, 0x00,
  0x01, 0x00, 0x00, 0x00, 0x09, 0x00, 0x00, 0x00, 0x96, 0xff, 0xff, 0xff,
  0x14, 0x00, 0x00, 0x00, 0x00, 0x00, 0x00, 0x08, 0x10, 0x00, 0x00, 0x00,
  0x14, 0x00, 0x00, 0x00, 0x04, 0x00, 0x04, 0x00, 0x04, 0x00, 0x00, 0x00,
  0x01, 0x00, 0x00, 0x00, 0x09, 0x00, 0x00, 0x00, 0x03, 0x00, 0x00, 0x00,
  0x08, 0x00, 0x00, 0x00, 0x06, 0x00, 0x00, 0x00, 0x03, 0x00, 0x00, 0x00,
  0xca, 0xff, 0xff, 0xff, 0x10, 0x00, 0x00, 0x00, 0x00, 0x00, 0x00, 0x08,
  0x10, 0x00, 0x00, 0x00, 0x14, 0x00, 0x00, 0x00, 0xba, 0xff, 0xff, 0xff,
  0x00, 0x00, 0x00, 0x01, 0x01, 0x00, 0x00, 0x00, 0x08, 0x00, 0x00, 0x00,
  0x03, 0x00, 0x00, 0x00, 0x07, 0x00, 0x00, 0x00, 0x05, 0x00, 0x00, 0x00,
  0x02, 0x00, 0x00, 0x00, 0x00, 0x00, 0x0e, 0x00, 0x16, 0x00, 0x00, 0x00,
  0x10, 0x00, 0x0c, 0x00, 0x0b, 0x00, 0x04, 0x00, 0x0e, 0x00, 0x00, 0x00,
  0x18, 0x00, 0x00, 0x00, 0x00, 0x00, 0x00, 0x08, 0x18, 0x00, 0x00, 0x00,
  0x1c, 0x00, 0x00, 0x00, 0x00, 0x00, 0x06, 0x00, 0x08, 0x00, 0x07, 0x00,
  0x06, 0x00, 0x00, 0x00, 0x00, 0x00, 0x00, 0x01, 0x01, 0x00, 0x00, 0x00,
  0x07, 0x00, 0x00, 0x00, 0x03, 0x00, 0x00, 0x00, 0x00, 0x00, 0x00, 0x00,
  0x04, 0x00, 0x00, 0x00, 0x01, 0x00, 0x00, 0x00, 0x01, 0x00, 0x00, 0x00,
  0x0a, 0x00, 0x00, 0x00, 0x01, 0x00, 0x00, 0x00, 0x00, 0x00, 0x00, 0x00,
  0x0b, 0x00, 0x00, 0x00, 0x18, 0x07, 0x00, 0x00, 0xa4, 0x06, 0x00, 0x00,
  0x4c, 0x06, 0x00, 0x00, 0xf8, 0x05, 0x00, 0x00, 0x4c, 0x05, 0x00, 0x00,
  0x98, 0x04, 0x00, 0x00, 0xe4, 0x03, 0x00, 0x00, 0xa8, 0x02, 0x00, 0x00,
  0x5c, 0x01, 0x00, 0x00, 0x60, 0x00, 0x00, 0x00, 0x04, 0x00, 0x00, 0x00,
  0x22, 0xf9, 0xff, 0xff, 0x14, 0x00, 0x00, 0x00, 0x30, 0x00, 0x00, 0x00,
  0x0b, 0x00, 0x00, 0x00, 0x00, 0x00, 0x00, 0x09, 0x38, 0x00, 0x00, 0x00,
  0x84, 0xf9, 0xff, 0xff, 0x08, 0x00, 0x00, 0x00, 0x10, 0x00, 0x00, 0x00,
  0x01, 0x00, 0x00, 0x00, 0x80, 0xff, 0xff, 0xff, 0xff, 0xff, 0xff, 0xff,
  0x01, 0x00, 0x00, 0x00, 0x00, 0x00, 0x80, 0x3b, 0x0d, 0x00, 0x00, 0x00,
  0x49, 0x64, 0x65, 0x6e, 0x74, 0x69, 0x74, 0x79, 0x5f, 0x69, 0x6e, 0x74,
  0x38, 0x00, 0x00, 0x00, 0x02, 0x00, 0x00, 0x00, 0x01, 0x00, 0x00, 0x00,
  0x04, 0x00, 0x00, 0x00, 0x7a, 0xf9, 0xff, 0xff, 0x14, 0x00, 0x00, 0x00,
  0x48, 0x00, 0x00, 0x00, 0x0a, 0x00, 0x00, 0x00, 0x00, 0x00, 0x00, 0x09,
  0xd8, 0x00, 0x00, 0x00, 0x6c, 0xf9, 0xff, 0xff, 0x10, 0x00, 0x00, 0x00,
  0x18, 0x00, 0x00, 0x00, 0x1c, 0x00, 0x00, 0x00, 0x20, 0x00, 0x00, 0x00,
  0x01, 0x00, 0x00, 0x00, 0xdf, 0xff, 0xff, 0xff, 0xff, 0xff, 0xff, 0xff,
  0x01, 0x00, 0x00, 0x00, 0x85, 0x6f, 0x9e, 0x3e, 0x01, 0x00, 0x00, 0x00,
  0x8b, 0x7d, 0x45, 0x42, 0x01, 0x00, 0x00, 0x00, 0x3d, 0x49, 0xec, 0xc1,
  0x95, 0x00, 0x00, 0x00, 0x73, 0x65, 0x71, 0x75, 0x65, 0x6e, 0x74, 0x69,
  0x61, 0x6c, 0x2f, 0x79, 0x5f, 0x70, 0x72, 0x65, 0x64, 0x2f, 0x4d, 0x61,
  0x74, 0x4d, 0x75, 0x6c, 0x3b, 0x53, 0x74, 0x61, 0x74, 0x65, 0x66, 0x75,
  0x6c, 0x50, 0x61, 0x72, 0x74, 0x69, 0x74, 0x69, 0x6f, 0x6e, 0x65, 0x64,
  0x43, 0x61, 0x6c, 0x6c, 0x2f, 0x73, 0x65, 0x71, 0x75, 0x65, 0x6e, 0x74,
  0x69, 0x61, 0x6c, 0x2f, 0x79, 0x5f, 0x70, 0x72, 0x65, 0x64, 0x2f, 0x4d,
  0x61, 0x74, 0x4d, 0x75, 0x6c, 0x3b, 0x73, 0x65, 0x71, 0x75, 0x65, 0x6e,
  0x74, 0x69, 0x61, 0x6c, 0x2f, 0x79, 0x5f, 0x70, 0x72, 0x65, 0x64, 0x2f,
  0x42, 0x69, 0x61, 0x73, 0x41, 0x64, 0x64, 0x3b, 0x53, 0x74, 0x61, 0x74,
  0x65, 0x66, 0x75, 0x6c, 0x50, 0x61, 0x72, 0x74, 0x69, 0x74, 0x69, 0x6f,
  0x6e, 0x65, 0x64, 0x43, 0x61, 0x6c, 0x6c, 0x2f, 0x73, 0x65, 0x71, 0x75,
  0x65, 0x6e, 0x74, 0x69, 0x61, 0x6c, 0x2f, 0x79, 0x5f, 0x70, 0x72, 0x65,
  0x64, 0x2f, 0x42, 0x69, 0x61, 0x73, 0x41, 0x64, 0x64, 0x00, 0x00, 0x00,
  0x02, 0x00, 0x00, 0x00, 0x01, 0x00, 0x00, 0x00, 0x04, 0x00, 0x00, 0x00,
  0x72, 0xfa, 0xff, 0xff, 0x14, 0x00, 0x00, 0x00, 0x4c, 0x00, 0x00, 0x00,
  0x09, 0x00, 0x00, 0x00, 0x00, 0x00, 0x00, 0x09, 0x28, 0x01, 0x00, 0x00,
  0x64, 0xfa, 0xff, 0xff, 0x10, 0x00, 0x00, 0x00, 0x1c, 0x00, 0x00, 0x00,
  0x20, 0x00, 0x00, 0x00, 0x24, 0x00, 0x00, 0x00, 0x01, 0x00, 0x00, 0x00,
  0x80, 0xff, 0xff, 0xff, 0xff, 0xff, 0xff, 0xff, 0x00, 0x00, 0x00, 0x00,
  0x01, 0x00, 0x00, 0x00, 0x0c, 0x2d, 0x57, 0x3e, 0x01, 0x00, 0x00, 0x00,
  0xdf, 0x55, 0x56, 0x42, 0x01, 0x00, 0x00, 0x00, 0x00, 0x00, 0x00, 0x00,
  0xe1, 0x00, 0x00, 0x00, 0x73, 0x65, 0x71, 0x75, 0x65, 0x6e, 0x74, 0x69,
  0x61, 0x6c, 0x2f, 0x64, 0x65, 0x6e, 0x73, 0x65, 0x5f, 0x31, 0x2f, 0x4d,
  0x61, 0x74, 0x4d, 0x75, 0x6c, 0x3b, 0x53, 0x74, 0x61, 0x74, 0x65, 0x66,
  0x75, 0x6c, 0x50, 0x61, 0x72, 0x74, 0x69, 0x74, 0x69, 0x6f, 0x6e, 0x65,
  0x64, 0x43, 0x61, 0x6c, 0x6c, 0x2f, 0x73, 0x65, 0x71, 0x75, 0x65, 0x6e,
  0x74, 0x69, 0x61, 0x6c, 0x2f, 0x64, 0x65, 0x6e, 0x73, 0x65, 0x5f, 0x31,
  0x2f, 0x4d, 0x61, 0x74, 0x4d, 0x75, 0x6c, 0x3b, 0x73, 0x65, 0x71, 0x75,
  0x65, 0x6e, 0x74, 0x69, 0x61, 0x6c, 0x2f, 0x64, 0x65, 0x6e, 0x73, 0x65,
  0x5f, 0x31, 0x2f, 0x52, 0x65, 0x6c, 0x75, 0x3b, 0x53, 0x74, 0x61, 0x74,
  0x65, 0x66, 0x75, 0x6c, 0x50, 0x61, 0x72, 0x74, 0x69, 0x74, 0x69, 0x6f,
  0x6e, 0x65, 0x64, 0x43, 0x61, 0x6c, 0x6c, 0x2f, 0x73, 0x65, 0x71, 0x75,
  0x65, 0x6e, 0x74, 0x69, 0x61, 0x6c, 0x2f, 0x64, 0x65, 0x6e, 0x73, 0x65,
  0x5f, 0x31, 0x2f, 0x52, 0x65, 0x6c, 0x75, 0x3b, 0x73, 0x65, 0x71, 0x75,
  0x65, 0x6e, 0x74, 0x69, 0x61, 0x6c, 0x2f, 0x64, 0x65, 0x6e, 0x73, 0x65,
  0x5f, 0x31, 0x2f, 0x42, 0x69, 0x61, 0x73, 0x41, 0x64, 0x64, 0x3b, 0x53,
  0x74, 0x61, 0x74, 0x65, 0x66, 0x75, 0x6c, 0x50, 0x61, 0x72, 0x74, 0x69,
  0x74, 0x69, 0x6f, 0x6e, 0x65, 0x64, 0x43, 0x61, 0x6c, 0x6c, 0x2f, 0x73,
  0x65, 0x71, 0x75, 0x65, 0x6e, 0x74, 0x69, 0x61, 0x6c, 0x2f, 0x64, 0x65,
  0x6e, 0x73, 0x65, 0x5f, 0x31, 0x2f, 0x42, 0x69, 0x61, 0x73, 0x41, 0x64,
  0x64, 0x00, 0x00, 0x00, 0x02, 0x00, 0x00, 0x00, 0x01, 0x00, 0x00, 0x00,
  0x0a, 0x00, 0x00, 0x00, 0xba, 0xfb, 0xff, 0xff, 0x14, 0x00, 0x00, 0x00,
  0x48, 0x00, 0x00, 0x00, 0x08, 0x00, 0x00, 0x00, 0x00, 0x00, 0x00, 0x09,
  0x18, 0x01, 0x00, 0x00, 0xac, 0xfb, 0xff, 0xff, 0x10, 0x00, 0x00, 0x00,
  0x18, 0x00, 0x00, 0x00, 0x1c, 0x00, 0x00, 0x00, 0x20, 0x00, 0x00, 0x00,
  0x01, 0x00, 0x00, 0x00, 0x80, 0xff, 0xff, 0xff, 0xff, 0xff, 0xff, 0xff,
  0x01, 0x00, 0x00, 0x00, 0xa6, 0x9d, 0x9b, 0x3e, 0x01, 0x00, 0x00, 0x00,
  0x08, 0x02, 0x9b, 0x42, 0x01, 0x00, 0x00, 0x00, 0x00, 0x00, 0x00, 0x00,
  0xd5, 0x00, 0x00, 0x00, 0x73, 0x65, 0x71, 0x75, 0x65, 0x6e, 0x74, 0x69,
  0x61, 0x6c, 0x2f, 0x64, 0x65, 0x6e, 0x73, 0x65, 0x2f, 0x4d, 0x61, 0x74,
  0x4d, 0x75, 0x6c, 0x3b, 0x53, 0x74, 0x61, 0x74, 0x65, 0x66, 0x75, 0x6c,
  0x50, 0x61, 0x72, 0x74, 0x69, 0x74, 0x69, 0x6f, 0x6e, 0x65, 0x64, 0x43,
  0x61, 0x6c, 0x6c, 0x2f, 0x73, 0x65, 0x71, 0x75, 0x65, 0x6e, 0x74, 0x69,
  0x61, 0x6c, 0x2f, 0x64, 0x65, 0x6e, 0x73, 0x65, 0x2f, 0x4d, 0x61, 0x74,
  0x4d, 0x75, 0x6c, 0x3b, 0x73, 0x65, 0x71, 0x75, 0x65, 0x6e, 0x74, 0x69,
  0x61, 0x6c, 0x2f, 0x64, 0x65, 0x6e, 0x73, 0x65, 0x2f, 0x52, 0x65, 0x6c,
  0x75, 0x3b, 0x53, 0x74, 0x61, 0x74, 0x65, 0x66, 0x75, 0x6c, 0x50, 0x61,
  0x72, 0x74, 0x69, 0x74, 0x69, 0x6f, 0x6e, 0x65, 0x64, 0x43, 0x61, 0x6c,
  0x6c, 0x2f, 0x73, 0x65, 0x71, 0x75, 0x65, 0x6e, 0x74, 0x69, 0x61, 0x6c,
  0x2f, 0x64, 0x65, 0x6e, 0x73, 0x65, 0x2f, 0x52, 0x65, 0x6c, 0x75, 0x3b,
  0x73, 0x65, 0x71, 0x75, 0x65, 0x6e, 0x74, 0x69, 0x61, 0x6c, 0x2f, 0x64,
  0x65, 0x6e, 0x73, 0x65, 0x2f, 0x42, 0x69, 0x61, 0x73, 0x41, 0x64, 0x64,
  0x3b, 0x53, 0x74, 0x61, 0x74, 0x65, 0x66, 0x75, 0x6c, 0x50, 0x61, 0x72,
  0x74, 0x69, 0x74, 0x69, 0x6f, 0x6e, 0x65, 0x64, 0x43, 0x61, 0x6c, 0x6c,
  0x2f, 0x73, 0x65, 0x71, 0x75, 0x65, 0x6e, 0x74, 0x69, 0x61, 0x6c, 0x2f,
  0x64, 0x65, 0x6e, 0x73, 0x65, 0x2f, 0x42, 0x69, 0x61, 0x73, 0x41, 0x64,
  0x64, 0x00, 0x00, 0x00, 0x02, 0x00, 0x00, 0x00, 0x01, 0x00, 0x00, 0x00,
  0x14, 0x00, 0x00, 0x00, 0xf2, 0xfc, 0xff, 0xff, 0x14, 0x00, 0x00, 0x00,
  0x4c, 0x00, 0x00, 0x00, 0x07, 0x00, 0x00, 0x00, 0x00, 0x00, 0x00, 0x09,
  0x90, 0x00, 0x00, 0x00, 0xe4, 0xfc, 0xff, 0xff, 0x10, 0x00, 0x00, 0x00,
  0x1c, 0x00, 0x00, 0x00, 0x20, 0x00, 0x00, 0x00, 0x24, 0x00, 0x00, 0x00,
  0x01, 0x00, 0x00, 0x00, 0x00, 0x00, 0x00, 0x00, 0x00, 0x00, 0x00, 0x00,
  0x00, 0x00, 0x00, 0x00, 0x01, 0x00, 0x00, 0x00, 0xee, 0x36, 0xee, 0x3b,
  0x01, 0x00, 0x00, 0x00, 0x80, 0x5a, 0x6c, 0x3f, 0x01, 0x00, 0x00, 0x00,
  0xc3, 0x4e, 0x41, 0xbf, 0x49, 0x00, 0x00, 0x00, 0x73, 0x65, 0x71, 0x75,
  0x65, 0x6e, 0x74, 0x69, 0x61, 0x6c, 0x2f, 0x79, 0x5f, 0x70, 0x72, 0x65,
  0x64, 0x2f, 0x4d, 0x61, 0x74, 0x4d, 0x75, 0x6c, 0x3b, 0x53, 0x74, 0x61,
  0x74, 0x65, 0x66, 0x75, 0x6c, 0x50, 0x61, 0x72, 0x74, 0x69, 0x74, 0x69,
  0x6f, 0x6e, 0x65, 0x64, 0x43, 0x61, 0x6c, 0x6c, 0x2f, 0x73, 0x65, 0x71,
  0x75, 0x65, 0x6e, 0x74, 0x69, 0x61, 0x6c, 0x2f, 0x79, 0x5f, 0x70, 0x72,
  0x65, 0x64, 0x2f, 0x4d, 0x61, 0x74, 0x4d, 0x75, 0x6c, 0x00, 0x00, 0x00,
  0x02, 0x00, 0x00, 0x00, 0x04, 0x00, 0x00, 0x00, 0x0a, 0x00, 0x00, 0x00,
  0xa2, 0xfd, 0xff, 0xff, 0x14, 0x00, 0x00, 0x00, 0x4c, 0x00, 0x00, 0x00,
  0x06, 0x00, 0x00, 0x00, 0x00, 0x00, 0x00, 0x09, 0x90, 0x00, 0x00, 0x00,
  0x94, 0xfd, 0xff, 0xff, 0x10, 0x00, 0x00, 0x00, 0x1c, 0x00, 0x00, 0x00,
  0x20, 0x00, 0x00, 0x00, 0x24, 0x00, 0x00, 0x00, 0x01, 0x00, 0x00, 0x00,
  0x00, 0x00, 0x00, 0x00, 0x00, 0x00, 0x00, 0x00, 0x00, 0x00, 0x00, 0x00,
  0x01, 0x00, 0x00, 0x00, 0x69, 0x4d, 0xd3, 0x3b, 0x01, 0x00, 0x00, 0x00,
  0xce, 0xa6, 0x51, 0x3f, 0x01, 0x00, 0x00, 0x00, 0x23, 0x6f, 0x30, 0xbf,
  0x4b, 0x00, 0x00, 0x00, 0x73, 0x65, 0x71, 0x75, 0x65, 0x6e, 0x74, 0x69,
  0x61, 0x6c, 0x2f, 0x64, 0x65, 0x6e, 0x73, 0x65, 0x5f, 0x31, 0x2f, 0x4d,
  0x61, 0x74, 0x4d, 0x75, 0x6c, 0x3b, 0x53, 0x74, 0x61, 0x74, 0x65, 0x66,
  0x75, 0x6c, 0x50, 0x61, 0x72, 0x74, 0x69, 0x74, 0x69, 0x6f, 0x6e, 0x65,
  0x64, 0x43, 0x61, 0x6c, 0x6c, 0x2f, 0x73, 0x65, 0x71, 0x75, 0x65, 0x6e,
  0x74, 0x69, 0x61, 0x6c, 0x2f, 0x64, 0x65, 0x6e, 0x73, 0x65, 0x5f, 0x31,
  0x2f, 0x4d, 0x61, 0x74, 0x4d, 0x75, 0x6c, 0x00, 0x02, 0x00, 0x00, 0x00,
  0x0a, 0x00, 0x00, 0x00, 0x14, 0x00, 0x00, 0x00, 0x52, 0xfe, 0xff, 0xff,
  0x14, 0x00, 0x00, 0x00, 0x48, 0x00, 0x00, 0x00, 0x05, 0x00, 0x00, 0x00,
  0x00, 0x00, 0x00, 0x09, 0x88, 0x00, 0x00, 0x00, 0x44, 0xfe, 0xff, 0xff,
  0x10, 0x00, 0x00, 0x00, 0x18, 0x00, 0x00, 0x00, 0x1c, 0x00, 0x00, 0x00,
  0x20, 0x00, 0x00, 0x00, 0x01, 0x00, 0x00, 0x00, 0x00, 0x00, 0x00, 0x00,
  0x00, 0x00, 0x00, 0x00, 0x01, 0x00, 0x00, 0x00, 0xc3, 0xcc, 0x8e, 0x3b,
  0x01, 0x00, 0x00, 0x00, 0x40, 0xea, 0xe6, 0x3e, 0x01, 0x00, 0x00, 0x00,
  0x29, 0xaf, 0x0d, 0xbf, 0x47, 0x00, 0x00, 0x00, 0x73, 0x65, 0x71, 0x75,
  0x65, 0x6e, 0x74, 0x69, 0x61, 0x6c, 0x2f, 0x64, 0x65, 0x6e, 0x73, 0x65,
  0x2f, 0x4d, 0x61, 0x74, 0x4d, 0x75, 0x6c, 0x3b, 0x53, 0x74, 0x61, 0x74,
  0x65, 0x66, 0x75, 0x6c, 0x50, 0x61, 0x72, 0x74, 0x69, 0x74, 0x69, 0x6f,
  0x6e, 0x65, 0x64, 0x43, 0x61, 0x6c, 0x6c, 0x2f, 0x73, 0x65, 0x71, 0x75,
  0x65, 0x6e, 0x74, 0x69, 0x61, 0x6c, 0x2f, 0x64, 0x65, 0x6e, 0x73, 0x65,
  0x2f, 0x4d, 0x61, 0x74, 0x4d, 0x75, 0x6c, 0x00, 0x02, 0x00, 0x00, 0x00,
  0x14, 0x00, 0x00, 0x00, 0x2a, 0x00, 0x00, 0x00, 0xfa, 0xfe, 0xff, 0xff,
  0x14, 0x00, 0x00, 0x00, 0x30, 0x00, 0x00, 0x00, 0x04, 0x00, 0x00, 0x00,
  0x00, 0x00, 0x00, 0x02, 0x34, 0x00, 0x00, 0x00, 0x5c, 0xff, 0xff, 0xff,
  0x08, 0x00, 0x00, 0x00, 0x10, 0x00, 0x00, 0x00, 0x01, 0x00, 0x00, 0x00,
  0x00, 0x00, 0x00, 0x00, 0x00, 0x00, 0x00, 0x00, 0x01, 0x00, 0x00, 0x00,
  0x0d, 0x3a, 0xc8, 0x3a, 0x09, 0x00, 0x00, 0x00, 0x75, 0x6e, 0x6b, 0x6e,
  0x6f, 0x77, 0x6e, 0x5f, 0x34, 0x00, 0x00, 0x00, 0x01, 0x00, 0x00, 0x00,
  0x04, 0x00, 0x00, 0x00, 0x4a, 0xff, 0xff, 0xff, 0x14, 0x00, 0x00, 0x00,
  0x34, 0x00, 0x00, 0x00, 0x03, 0x00, 0x00, 0x00, 0x00, 0x00, 0x00, 0x02,
  0x38, 0x00, 0x00, 0x00, 0xac, 0xff, 0xff, 0xff, 0x08, 0x00, 0x00, 0x00,
  0x14, 0x00, 0x00, 0x00, 0x01, 0x00, 0x00, 0x00, 0x00, 0x00, 0x00, 0x00,
  0x00, 0x00, 0x00, 0x00, 0x00, 0x00, 0x00, 0x00, 0x01, 0x00, 0x00, 0x00,
  0xfe, 0x71, 0x00, 0x3b, 0x09, 0x00, 0x00, 0x00, 0x75, 0x6e, 0x6b, 0x6e,
  0x6f, 0x77, 0x6e, 0x5f, 0x32, 0x00, 0x00, 0x00, 0x01, 0x00, 0x00, 0x00,
  0x0a, 0x00, 0x00, 0x00, 0x9e, 0xff, 0xff, 0xff, 0x20, 0x00, 0x00, 0x00,
  0x40, 0x00, 0x00, 0x00, 0x02, 0x00, 0x00, 0x00, 0x00, 0x00, 0x00, 0x02,
  0x44, 0x00, 0x00, 0x00, 0x0c, 0x00, 0x0c, 0x00, 0x00, 0x00, 0x00, 0x00,
  0x08, 0x00, 0x04, 0x00, 0x0c, 0x00, 0x00, 0x00, 0x08, 0x00, 0x00, 0x00,
  0x14, 0x00, 0x00, 0x00, 0x01, 0x00, 0x00, 0x00, 0x00, 0x00, 0x00, 0x00,
  0x00, 0x00, 0x00, 0x00, 0x00, 0x00, 0x00, 0x00, 0x01, 0x00, 0x00, 0x00,
  0xdd, 0x2e, 0x02, 0x3c, 0x09, 0x00, 0x00, 0x00, 0x75, 0x6e, 0x6b, 0x6e,
  0x6f, 0x77, 0x6e, 0x5f, 0x30, 0x00, 0x00, 0x00, 0x01, 0x00, 0x00, 0x00,
  0x14, 0x00, 0x00, 0x00, 0x00, 0x00, 0x0e, 0x00, 0x18, 0x00, 0x14, 0x00,
  0x13, 0x00, 0x0c, 0x00, 0x08, 0x00, 0x04, 0x00, 0x0e, 0x00, 0x00, 0x00,
  0x20, 0x00, 0x00, 0x00, 0x58, 0x00, 0x00, 0x00, 0x01, 0x00, 0x00, 0x00,
  0x00, 0x00, 0x00, 0x09, 0x64, 0x00, 0x00, 0x00, 0x0c, 0x00, 0x14, 0x00,
  0x10, 0x00, 0x0c, 0x00, 0x08, 0x00, 0x04, 0x00, 0x0c, 0x00, 0x00, 0x00,
  0x10, 0x00, 0x00, 0x00, 0x1c, 0x00, 0x00, 0x00, 0x20, 0x00, 0x00, 0x00,
  0x24, 0x00, 0x00, 0x00, 0x01, 0x00, 0x00, 0x00, 0x04, 0x00, 0x00, 0x00,
  0x00, 0x00, 0x00, 0x00, 0x00, 0x00, 0x00, 0x00, 0x01, 0x00, 0x00, 0x00,
  0xb4, 0x61, 0xe9, 0x3f, 0x01, 0x00, 0x00, 0x00, 0xb8, 0x5e, 0x5f, 0x43,
  0x01, 0x00, 0x00, 0x00, 0xec, 0x91, 0x71, 0xc3, 0x10, 0x00, 0x00, 0x00,
  0x64, 0x65, 0x6e, 0x73, 0x65, 0x5f, 0x69, 0x6e, 0x70, 0x75, 0x74, 0x5f,
  0x69, 0x6e, 0x74, 0x38, 0x00, 0x00, 0x00, 0x00, 0x02, 0x00, 0x00, 0x00,
  0x01, 0x00, 0x00, 0x00, 0x2a, 0x00, 0x00, 0x00, 0x04, 0x00, 0x00, 0x00,
  0x54, 0x00, 0x00, 0x00, 0x34, 0x00, 0x00, 0x00, 0x24, 0x00, 0x00, 0x00,
  0x04, 0x00, 0x00, 0x00, 0xc8, 0xff, 0xff, 0xff, 0x06, 0x00, 0x00, 0x00,
  0x02, 0x00, 0x00, 0x00, 0x00, 0x00, 0x00, 0x06, 0x0c, 0x00, 0x0c, 0x00,
  0x0b, 0x00, 0x00, 0x00, 0x00, 0x00, 0x04, 0x00, 0x0c, 0x00, 0x00, 0x00,
  0x72, 0x00, 0x00, 0x00, 0x00, 0x00, 0x00, 0x72, 0xf0, 0xff, 0xff, 0xff,
  0x19, 0x00, 0x00, 0x00, 0x02, 0x00, 0x00, 0x00, 0x00, 0x00, 0x00, 0x19,
  0x0c, 0x00, 0x10, 0x00, 0x0f, 0x00, 0x00, 0x00, 0x08, 0x00, 0x04, 0x00,
  0x0c, 0x00, 0x00, 0x00, 0x09, 0x00, 0x00, 0x00, 0x04, 0x00, 0x00, 0x00,
  0x00, 0x00, 0x00, 0x09
};
unsigned int trained_tflite_len = 3928;
